TRT-101200-EntropyCalibration2
images: 3c010a14
/model.0/conv/Conv_output_0: 3e8dfc42
/model.0/act/Sigmoid_output_0: 3c010a14
/model.0/act/Mul_output_0: 3e135adb
/model.1/conv/Conv_output_0: 3ea4df9f
/model.1/act/Sigmoid_output_0: 3c010a14
/model.1/act/Mul_output_0: 3e1b9ff5
/model.2/cv1/conv/Conv_output_0: 3e2131a0
/model.2/cv1/act/Sigmoid_output_0: 3c00f411
/model.2/cv1/act/Mul_output_0: 3d12f076
/model.2/m/m.0/cv1/conv/Conv_output_0: 3e578862
/model.2/m/m.0/cv1/act/Sigmoid_output_0: 3c00ebd6
/model.2/m/m.0/cv1/act/Mul_output_0: 3d431585
/model.2/m/m.0/cv2/conv/Conv_output_0: 3e1e0945
/model.2/m/m.0/cv2/act/Sigmoid_output_0: 3c010a14
/model.2/m/m.0/cv2/act/Mul_output_0: 3d92eb07
/model.2/m/m.0/Add_output_0: 3e0933e6
/model.2/cv2/conv/Conv_output_0: 3e8cf6da
/model.2/cv2/act/Sigmoid_output_0: 3c010a14
/model.2/cv2/act/Mul_output_0: 3dd1557f
/model.2/Concat_output_0: 3dc52a57
/model.2/cv3/conv/Conv_output_0: 3e0a07d7
/model.2/cv3/act/Sigmoid_output_0: 3c0111f5
/model.2/cv3/act/Mul_output_0: 3d69e725
/model.3/conv/Conv_output_0: 3da1702c
/model.3/act/Sigmoid_output_0: 3c00a1f9
/model.3/act/Mul_output_0: 3cc114ce
/model.4/cv1/conv/Conv_output_0: 3d2f7e64
/model.4/cv1/act/Sigmoid_output_0: 3bdf9378
/model.4/cv1/act/Mul_output_0: 3c1f3572
/model.4/m/m.0/cv1/conv/Conv_output_0: 3d3f00db
/model.4/m/m.0/cv1/act/Sigmoid_output_0: 3bff61cb
/model.4/m/m.0/cv1/act/Mul_output_0: 3d103663
/model.4/m/m.0/cv2/conv/Conv_output_0: 3d398bed
/model.4/m/m.0/cv2/act/Sigmoid_output_0: 3bfc802c
/model.4/m/m.0/cv2/act/Mul_output_0: 3c90667c
/model.4/m/m.0/Add_output_0: 3ce3f58f
/model.4/m/m.1/cv1/conv/Conv_output_0: 3d752cd5
/model.4/m/m.1/cv1/act/Sigmoid_output_0: 3c0091aa
/model.4/m/m.1/cv1/act/Mul_output_0: 3cd50db2
/model.4/m/m.1/cv2/conv/Conv_output_0: 3d8bc806
/model.4/m/m.1/cv2/act/Sigmoid_output_0: 3c00c5bf
/model.4/m/m.1/cv2/act/Mul_output_0: 3d0fa307
/model.4/m/m.1/Add_output_0: 3d568d92
/model.4/cv2/conv/Conv_output_0: 3d7c4188
/model.4/cv2/act/Sigmoid_output_0: 3c00827e
/model.4/cv2/act/Mul_output_0: 3ce8da10
/model.4/Concat_output_0: 3d2816dd
/model.4/cv3/conv/Conv_output_0: 3d4ccebe
/model.4/cv3/act/Sigmoid_output_0: 3c01b6ce
/model.4/cv3/act/Mul_output_0: 3c809765
/model.5/conv/Conv_output_0: 3d73bc28
/model.5/act/Sigmoid_output_0: 3c0146ec
/model.5/act/Mul_output_0: 3c9a9318
/model.6/cv1/conv/Conv_output_0: 3d170b24
/model.6/cv1/act/Sigmoid_output_0: 3bef9d6f
/model.6/cv1/act/Mul_output_0: 3c0fd10d
/model.6/m/m.0/cv1/conv/Conv_output_0: 3d629735
/model.6/m/m.0/cv1/act/Sigmoid_output_0: 3bff19a6
/model.6/m/m.0/cv1/act/Mul_output_0: 3d10ad37
/model.6/m/m.0/cv2/conv/Conv_output_0: 3d27e324
/model.6/m/m.0/cv2/act/Sigmoid_output_0: 3bf95969
/model.6/m/m.0/cv2/act/Mul_output_0: 3c4993c5
/model.6/m/m.0/Add_output_0: 3cb73d4f
/model.6/m/m.1/cv1/conv/Conv_output_0: 3d63f18e
/model.6/m/m.1/cv1/act/Sigmoid_output_0: 3c00d8c5
/model.6/m/m.1/cv1/act/Mul_output_0: 3c900b99
/model.6/m/m.1/cv2/conv/Conv_output_0: 3d5325cf
/model.6/m/m.1/cv2/act/Sigmoid_output_0: 3c004633
/model.6/m/m.1/cv2/act/Mul_output_0: 3c993955
/model.6/m/m.1/Add_output_0: 3d157608
/model.6/m/m.2/cv1/conv/Conv_output_0: 3d6831ab
/model.6/m/m.2/cv1/act/Sigmoid_output_0: 3c0048cb
/model.6/m/m.2/cv1/act/Mul_output_0: 3ca63a2d
/model.6/m/m.2/cv2/conv/Conv_output_0: 3d879577
/model.6/m/m.2/cv2/act/Sigmoid_output_0: 3c00ee8e
/model.6/m/m.2/cv2/act/Mul_output_0: 3d0f9b8b
/model.6/m/m.2/Add_output_0: 3d6d2069
/model.6/cv2/conv/Conv_output_0: 3d8b3bea
/model.6/cv2/act/Sigmoid_output_0: 3c00ce2f
/model.6/cv2/act/Mul_output_0: 3d033559
/model.6/Concat_output_0: 3d124cb0
/model.6/cv3/conv/Conv_output_0: 3d66243f
/model.6/cv3/act/Sigmoid_output_0: 3c0106a8
/model.6/cv3/act/Mul_output_0: 3c7339bf
/model.7/conv/Conv_output_0: 3d82db42
/model.7/act/Sigmoid_output_0: 3c0065f0
/model.7/act/Mul_output_0: 3c9a2d1d
/model.8/cv1/conv/Conv_output_0: 3d3c606b
/model.8/cv1/act/Sigmoid_output_0: 3c04d4ea
/model.8/cv1/act/Mul_output_0: 3bf1056f
/model.8/m/m.0/cv1/conv/Conv_output_0: 3dac2fd7
/model.8/m/m.0/cv1/act/Sigmoid_output_0: 3c021316
/model.8/m/m.0/cv1/act/Mul_output_0: 3ce9b42a
/model.8/m/m.0/cv2/conv/Conv_output_0: 3db7bb1b
/model.8/m/m.0/cv2/act/Sigmoid_output_0: 3c010db0
/model.8/m/m.0/cv2/act/Mul_output_0: 3cff59b9
/model.8/m/m.0/Add_output_0: 3d7e7e5d
/model.8/cv2/conv/Conv_output_0: 3d8bab14
/model.8/cv2/act/Sigmoid_output_0: 3c07c853
/model.8/cv2/act/Mul_output_0: 3cd586fd
/model.8/Concat_output_0: 3d24179b
/model.8/cv3/conv/Conv_output_0: 3da48bdb
/model.8/cv3/act/Sigmoid_output_0: 3c03b9ea
/model.8/cv3/act/Mul_output_0: 3cd35788
/model.9/cv1/conv/Conv_output_0: 3d6612e2
/model.9/cv1/act/Sigmoid_output_0: 3c0061e6
/model.9/cv1/act/Mul_output_0: 3d40cbb1
/model.9/m/MaxPool_output_0: 3d40cbb1
/model.9/m_1/MaxPool_output_0: 3d40cbb1
/model.9/m_2/MaxPool_output_0: 3d40cbb1
/model.9/Concat_output_0: 3d66a788
/model.9/cv2/conv/Conv_output_0: 3d7c6b31
/model.9/cv2/act/Sigmoid_output_0: 3c00f673
/model.9/cv2/act/Mul_output_0: 3ca58a56
/model.10/conv/Conv_output_0: 3d811089
/model.10/act/Sigmoid_output_0: 3c01aff1
/model.10/act/Mul_output_0: 3cd32afe
/model.23/Concat_output_0: 3d01d5a8
/model.24/Mul_1_output_0: 40a1a0b1
/model.24/Mul_5_output_0: 40ac2982
/model.24/Constant_2_output_0_output: 3f1e465d
/model.24/Split_1_output_2: 3afe0922
/model.24/Sigmoid_1_output_0: 3ba1194f
/model.24/Split_output_2: 3aff6103
/model.24/Reshape_1_output_0: 40a0875b
/model.24/Constant_6_output_0_output: 3e851265
/model.24/m.0/Conv_output_0: 3e13e718
/model.24/Pow_1_output_0: 3d017104
/model.23/cv3/act/Mul_output_0: 3d700aa1
/model.23/cv3/act/Sigmoid_output_0: 3c053a6a
ONNXTRT_Broadcast_85_output: 3c810a14
/model.24/Mul_4_output_0: 3c7f3553
/model.24/Constant_10_output_0_output: 3e9b4020
/model.24/Add_1_output_0: 3eac2982
/model.24/Constant_11_output_0_output: 3e010a14
ONNXTRT_Broadcast_72_output: 3d810a14
ONNXTRT_Broadcast_87_output: 3e010a14
/model.24/Mul_output_0: 3c7ea06c
/model.24/Split_1_output_1: 3c04938e
/model.24/Transpose_1_output_0: 3df4c123
/model.24/Split_output_1: 3c00710a
/model.24/Concat_output_0: 40a0875b
/model.24/Pow_output_0: 3d0169fc
/model.24/Constant_5_output_0_output: 3c810a14
ONNXTRT_Broadcast_89_output: 3c810a14
/model.24/Constant_3_output_0_output: 3d810a14
/model.24/Mul_6_output_0: 3c84938e
ONNXTRT_Broadcast_output: 3c810a14
ONNXTRT_Broadcast_76_output: 3c810a14
/model.24/Split_output_0: 3bfea06c
/model.24/Constant_13_output_0_output: 3c810a14
/model.24/Sigmoid_output_0: 3bc0c9de
/model.24/Reshape_2_output_0: 3df4c123
/model.24/Transpose_output_0: 3e13e718
/model.24/Constant_14_output_0_output: 3f6feebd
ONNXTRT_Broadcast_91_output: 3c810a14
/model.24/Mul_7_output_0: 4059fabd
/model.11/Resize_output_0: 3cd32afe
/model.12/Concat_output_0: 3cb1c7c5
/model.13/cv1/conv/Conv_output_0: 3d4ef131
/model.13/cv1/act/Sigmoid_output_0: 3bff7193
/model.13/cv1/act/Mul_output_0: 3c889409
/model.13/m/m.0/cv1/conv/Conv_output_0: 3d4922fc
/model.13/m/m.0/cv1/act/Sigmoid_output_0: 3c0248d9
/model.13/m/m.0/cv1/act/Mul_output_0: 3cb11c55
/model.13/m/m.0/cv2/conv/Conv_output_0: 3d65431c
/model.13/m/m.0/cv2/act/Sigmoid_output_0: 3c0286ac
/model.13/m/m.0/cv2/act/Mul_output_0: 3cb3fb56
/model.13/cv2/conv/Conv_output_0: 3d613103
/model.13/cv2/act/Sigmoid_output_0: 3c0410d7
/model.13/cv2/act/Mul_output_0: 3cb2e766
/model.13/Concat_output_0: 3cb3fb56
/model.13/cv3/conv/Conv_output_0: 3d9290a8
/model.13/cv3/act/Sigmoid_output_0: 3c00c7c9
/model.13/cv3/act/Mul_output_0: 3cc017c9
/model.14/conv/Conv_output_0: 3d4576d3
/model.14/act/Sigmoid_output_0: 3c009901
/model.14/act/Mul_output_0: 3d01b787
/model.24/Mul_9_output_0: 40a150b0
/model.24/Constant_20_output_0_output: 3c810a14
/model.24/Mul_10_output_0: 3c807c50
/model.24/Constant_21_output_0_output: 3c810a14
/model.24/Mul_2_output_0: 3c80710a
ONNXTRT_Broadcast_104_output: 3c810a14
ONNXTRT_Broadcast_74_output: 3c810a14
ONNXTRT_Broadcast_106_output: 3c810a14
/model.24/Pow_2_output_0: 3d0002c0
/model.24/Mul_11_output_0: 40b43fd2
/model.24/Concat_2_output_0: 409f6682
/model.24/Concat_1_output_0: 409f8084
/model.24/Reshape_3_output_0: 409f8084
/model.24/Transpose_2_output_0: 3deb237c
/model.24/Sigmoid_2_output_0: 3ba06a7f
/model.23/cv3/conv/Conv_output_0: 3df953c2
/model.24/Constant_4_output_0_output: 3c810a14
/model.24/Constant_12_output_0_output: 3c810a14
/model.24/Add_output_0: 3f21a0b1
/model.24/Constant_9_output_0_output: 3c810a14
/model.24/Split_1_output_0: 3bff3553
/model.24/Constant_1_output_0_output: 3c810a14
/model.24/m.1/Conv_output_0: 3df4c123
/model.24/Mul_3_output_0: 3f82669b
/model.24/Reshape_output_0: 3e13e718
/model.24/Split_2_output_1: 3c007c50
/model.24/Split_2_output_2: 3af9f414
/model.24/Split_2_output_0: 3c0073a0
/model.24/Constant_17_output_0_output: 3c810a14
ONNXTRT_Broadcast_100_output: 3c810a14
/model.24/Mul_8_output_0: 3c8073a0
/model.24/Reshape_4_output_0: 3deb237c
/model.24/Constant_18_output_0_output: 3e1533a7
/model.24/Add_2_output_0: 3e2150b0
/model.24/Constant_19_output_0_output: 3e810a14
/model.24/m.2/Conv_output_0: 3deb237c
ONNXTRT_Broadcast_102_output: 3e810a14
/model.24/Reshape_5_output_0: 409f6682
/model.24/Constant_22_output_0_output: 403c03af
output0: 40a0875b
/model.15/Resize_output_0: 3d01b787
/model.16/Concat_output_0: 3cb20911
/model.17/cv1/conv/Conv_output_0: 3d22dad5
/model.17/cv1/act/Sigmoid_output_0: 3bf5c5b7
/model.17/cv1/act/Mul_output_0: 3c72d588
/model.17/m/m.0/cv1/conv/Conv_output_0: 3d224ee6
/model.17/m/m.0/cv1/act/Sigmoid_output_0: 3bf78027
/model.17/m/m.0/cv1/act/Mul_output_0: 3c8ff2c6
/model.17/m/m.0/cv2/conv/Conv_output_0: 3d91064d
/model.17/m/m.0/cv2/act/Sigmoid_output_0: 3c00df31
/model.17/m/m.0/cv2/act/Mul_output_0: 3d12b829
/model.17/cv2/conv/Conv_output_0: 3d5068c8
/model.17/cv2/act/Sigmoid_output_0: 3c0644eb
/model.17/cv2/act/Mul_output_0: 3d0ff115
/model.17/Concat_output_0: 3d12b829
/model.17/cv3/conv/Conv_output_0: 3e21909a
/model.17/cv3/act/Sigmoid_output_0: 3c010a14
/model.17/cv3/act/Mul_output_0: 3d93d011
/model.18/conv/Conv_output_0: 3d76f9f3
/model.18/act/Sigmoid_output_0: 3c0103c5
/model.18/act/Mul_output_0: 3ce5c6aa
/model.19/Concat_output_0: 3ce5c6aa
/model.20/cv1/conv/Conv_output_0: 3d7427cb
/model.20/cv1/act/Sigmoid_output_0: 3c05bf00
/model.20/cv1/act/Mul_output_0: 3cea45fa
/model.20/m/m.0/cv1/conv/Conv_output_0: 3d5288c5
/model.20/m/m.0/cv1/act/Sigmoid_output_0: 3c09b7e2
/model.20/m/m.0/cv1/act/Mul_output_0: 3c99637d
/model.20/m/m.0/cv2/conv/Conv_output_0: 3daaf637
/model.20/m/m.0/cv2/act/Sigmoid_output_0: 3c0633e8
/model.20/m/m.0/cv2/act/Mul_output_0: 3d0207fb
/model.20/cv2/conv/Conv_output_0: 3d4ff88c
/model.20/cv2/act/Sigmoid_output_0: 3c0062ab
/model.20/cv2/act/Mul_output_0: 3ce73f2e
/model.20/Concat_output_0: 3d0207fb
/model.20/cv3/conv/Conv_output_0: 3e214a3e
/model.20/cv3/act/Sigmoid_output_0: 3c010a14
/model.20/cv3/act/Mul_output_0: 3d97f014
/model.21/conv/Conv_output_0: 3d8eb637
/model.21/act/Sigmoid_output_0: 3c010dea
/model.21/act/Mul_output_0: 3cd26774
/model.22/Concat_output_0: 3cd26774
/model.23/cv1/conv/Conv_output_0: 3d8f1360
/model.23/cv1/act/Sigmoid_output_0: 3c011174
/model.23/cv1/act/Mul_output_0: 3ce9bbc5
/model.23/m/m.0/cv1/conv/Conv_output_0: 3d9fb65f
/model.23/m/m.0/cv1/act/Sigmoid_output_0: 3c03ca2f
/model.23/m/m.0/cv1/act/Mul_output_0: 3ce8c724
/model.23/m/m.0/cv2/conv/Conv_output_0: 3dcaee10
/model.23/m/m.0/cv2/act/Sigmoid_output_0: 3c0d1f1d
/model.23/m/m.0/cv2/act/Mul_output_0: 3d1119e3
/model.23/cv2/conv/Conv_output_0: 3d7f2aa4
/model.23/cv2/act/Sigmoid_output_0: 3c0109cd
/model.23/cv2/act/Mul_output_0: 3d01d5a8
